<pad>	0
<unk>	0
<s>	0
</s>	0
<noise>	0
<laugh>	0
<hes>	0
▁	-2.76703
a	-3.33515
an	-3.37166
u	-3.51494
i	-3.66666
ng	-3.68093
kan	-3.85881
?	-4.19519
,	-4.20965
.	-4.33434
h	-4.35018
▁ya	-4.38149
kah	-4.40702
▁di	-4.46988
▁ke	-4.50787
▁kam	-4.57766
▁d	-4.60335
s	-4.61334
▁ini	-4.74199
▁se	-4.74241
▁p	-4.78211
▁l	-4.78658
t	-4.79202
▁J	-4.81625
▁su	-4.8615
k	-4.86602
▁t	-4.96772
▁mem	-4.97655
▁Apa	-5.02845
▁saya	-5.02949
▁u	-5.03056
ika	-5.0337
dah	-5.03579
ntuk	-5.04815
si	-5.0925
in	-5.13344
!	-5.1337
▁T	-5.13949
at	-5.14191
r	-5.17608
nya	-5.19359
m	-5.20258
o	-5.20392
▁kita	-5.20899
olo	-5.25197
e	-5.25264
▁meng	-5.27877
▁A	-5.33663
ta	-5.37679
▁ber	-5.38129
ebi	-5.39217
al	-5.46222
engan	-5.48491
▁S	-5.52876
idak	-5.53936
▁apa	-5.54356
lah	-5.54603
da	-5.55495
apa	-5.55994
▁men	-5.56253
l	-5.58999
ga	-5.60698
▁ter	-5.61232
▁bisa	-5.65555
sa	-5.68617
n	-5.69023
▁a	-5.69278
akan	-5.69611
ap	-5.73879
ari	-5.75619
ar	-5.76124
▁peng	-5.79746
ak	-5.81443
asi	-5.85042
p	-5.86033
▁jadwal	-5.86463
▁itu	-5.86475
ma	-5.89337
▁ada	-5.90211
▁k	-5.90891
gi	-5.94208
nggu	-5.94359
▁kampus	-5.95183
ku	-6.02266
ya	-6.02508
▁semua	-6.02836
aya	-6.02911
▁Palembang	-6.0317
▁belajar	-6.0317
wa	-6.04224
▁per	-6.05671
ja	-6.06455
ah	-6.07218
▁mi	-6.08773
▁sa	-6.13032
▁mas	-6.14066
ang	-6.14665
b	-6.15544
or	-6.16636
mana	-6.20432
ri	-6.21465
astik	-6.23183
▁Bu	-6.23239
▁tugas	-6.2324
▁ruang	-6.23241
uli	-6.23608
ol	-6.23674
itas	-6.24335
▁buk	-6.25272
atur	-6.256
ka	-6.25931
g	-6.26322
us	-6.30106
tem	-6.30942
pus	-6.31095
ni	-6.32364
▁waktu	-6.34696
▁banyak	-6.34726
jika	-6.34843
harus	-6.35025
lum	-6.35049
ram	-6.35171
bah	-6.37666
▁b	-6.39485
▁Si	-6.40842
er	-6.42201
▁ja	-6.42688
▁pro	-6.43943
ngat	-6.44173
jadi	-6.48375
▁praktikum	-6.48375
▁depan	-6.48375
▁dalam	-6.48399
bot	-6.48412
▁hari	-6.48548
st	-6.49215
sen	-6.49228
▁re	-6.50456
mak	-6.50697
▁car	-6.51872
▁me	-6.52886
▁be	-6.53998
▁seti	-6.54306
pat	-6.54821
gar	-6.57243
te	-6.59217
▁pe	-6.61288
atan	-6.61544
ada	-6.62532
en	-6.63716
lesai	-6.63793
▁Ber	-6.63793
▁warga	-6.63794
▁menye	-6.63794
de	-6.63929
▁tempat	-6.63937
yo	-6.64172
▁sama	-6.64416
min	-6.64463
urang	-6.64486
angk	-6.64773
berikan	-6.64911
rak	-6.65389
mo	-6.65845
bantu	-6.67041
dara	-6.6799
▁hasil	-6.68107
▁do	-6.69897
eb	-6.7194
men	-6.73022
▁data	-6.73161
sua	-6.74009
rah	-6.75131
f	-6.79994
▁te	-6.81728
-	-6.82028
▁Bisa	-6.82029
▁Di	-6.82029
▁laboratorium	-6.82029
▁publik	-6.82029
ktif	-6.82029
▁akhir	-6.82029
▁kota	-6.82036
guna	-6.8204
▁bagi	-6.82044
▁mahasiswa	-6.82053
etak	-6.82054
▁sis	-6.82132
masi	-6.82145
fir	-6.82153
langkah	-6.82378
▁makan	-6.82811
▁buat	-6.84186
▁R	-6.84604
▁mer	-6.84796
▁berk	-6.85122
uku	-6.88016
ir	-6.90183
tas	-6.94404
▁mengu	-6.96111
ngin	-6.96504
per	-6.96574
car	-6.96764
▁pen	-6.96885
y	-6.97762
mbil	-6.97773
hasil	-6.98223
ntu	-7.00702
C	-7.02483
ce	-7.03762
ekerja	-7.03764
▁lab	-7.04063
lapor	-7.04111
ntar	-7.04152
ahasiswa	-7.04318
ampu	-7.04325
ver	-7.04349
adwal	-7.04349
hidup	-7.04349
jelas	-7.04349
▁Kam	-7.04349
▁kelompok	-7.04349
butuh	-7.04349
▁meningkat	-7.04349
▁menyenangkan	-7.04349
▁rumah	-7.04349
▁rakyat	-7.04349
▁resmi	-7.04349
▁mengulang	-7.04351
▁kon	-7.04356
elamat	-7.04358
▁sebe	-7.04359
▁baru	-7.04371
ikut	-7.04409
ajar	-7.04443
▁mendapat	-7.04462
▁Pe	-7.04479
▁siap	-7.045
▁lingkungan	-7.04568
▁tam	-7.0465
▁siswa	-7.0465
▁meja	-7.04738
aham	-7.04872
▁baik	-7.05
pik	-7.0511
▁pendidikan	-7.05247
▁menc	-7.05872
▁saat	-7.06091
mata	-7.06231
erik	-7.07359
▁pengh	-7.08943
▁ken	-7.08992
ses	-7.1013
▁w	-7.10475
ambil	-7.11833
▁g	-7.13741
▁prose	-7.16294
▁ag	-7.20408
T	-7.25694
tur	-7.26652
▁keluarga	-7.32271
▁Ke	-7.33105
U	-7.33126
lektro	-7.33127
manfaat	-7.33127
ndralaya	-7.33127
uji	-7.33127
▁Wah	-7.33127
▁coba	-7.33127
▁dilaksanakan	-7.33127
▁fakultas	-7.33127
▁tersedia	-7.33127
▁Da	-7.33127
▁dimatikan	-7.33127
▁sekolah	-7.33127
struk	-7.33127
▁bulan	-7.33128
▁sore	-7.33129
umum	-7.3313
guru	-7.33131
▁tanam	-7.33134
pelajar	-7.33134
▁menyi	-7.33141
oleh	-7.33146
▁merasa	-7.33152
▁inf	-7.33188
ilm	-7.33196
▁tinggi	-7.33198
▁pagi	-7.33244
kit	-7.33256
enera	-7.33266
bung	-7.33356
▁lain	-7.33402
jalan	-7.3352
ling	-7.33542
lai	-7.33557
perlu	-7.3356
penuh	-7.33734
▁menda	-7.33934
▁antar	-7.33997
▁bang	-7.34033
lam	-7.34196
ebat	-7.34234
enda	-7.34323
jaga	-7.34357
ok	-7.34427
luar	-7.34653
▁kant	-7.34715
lik	-7.35573
orm	-7.35869
sp	-7.36822
▁berta	-7.36833
mater	-7.37425
ren	-7.38408
tik	-7.39242
nta	-7.41883
fe	-7.42623
elas	-7.44186
emuan	-7.44311
upa	-7.47928
▁tent	-7.51706
datang	-7.52542
diak	-7.53143
w	-7.56918
efe	-7.62435
tera	-7.64161
▁memba	-7.64714
buat	-7.66319
prose	-7.67299
R	-7.67529
layan	-7.68649
pert	-7.71804
penting	-7.72407
buka	-7.7253
bil	-7.73523
unju	-7.73616
embangun	-7.73683
▁audi	-7.73693
▁pendi	-7.73693
1	-7.73693
H	-7.73693
hadir	-7.73693
kembali	-7.73693
kunci	-7.73693
lanjut	-7.73693
percaya	-7.73693
redi	-7.73693
tuju	-7.73693
wajib	-7.73693
▁kesehatan	-7.73693
▁maksimal	-7.73693
▁rekomendasi	-7.73693
▁semester	-7.73693
▁sendiri	-7.73693
▁terakhir	-7.73693
▁tingkat	-7.73693
▁positif	-7.73693
▁sekarang	-7.73693
▁terbaru	-7.73693
tribusi	-7.73693
umpul	-7.73693
▁mengirim	-7.73694
▁Ulu	-7.73694
▁biasa	-7.73694
latih	-7.73695
▁diterima	-7.73696
S	-8.36873
V	-8.39367
P	-8.42548
G	-8.42867
"	-8.43067
0	-8.43067
2	-8.43067
5	-8.43067
8	-8.43067
9	-8.43067
E	-8.43067
Y	-8.43067
z	-8.43067
I	-8.65941
F	-8.65951
W	-8.65961
M	-8.65971
L	-8.65981
v	-8.65991
D	-8.66001
K	-8.66011
B	-8.66021
J	-8.66031
c	-8.66041
A	-8.66051
j	-8.66061
d	-8.66071
